000000000000000011111111000000010000001100000001000000000000000100000000
111111111111111000000001111111110000001000000001000000000000001000000011
111111110000000111111110000000000000000100000001000001010000001111111110
000000010000000000000000111111111111110100000100000000010000001000000001
111111111111111000000100000000011111111000000001000000011111110111111111
111111011111111100000011000000000000001000000000000000010000001100000000
000000000000000111111110000000010000000011111101000000010000001000000010
000000010000001000000011000001010000000000000001111111101111111100000001
